unsigned char converted_model_tflite[] = {
  0x1c, 0x00, 0x00, 0x00, 0x54, 0x46, 0x4c, 0x33, 0x00, 0x00, 0x12, 0x00,
  0x1c, 0x00, 0x18, 0x00, 0x14, 0x00, 0x10, 0x00, 0x0c, 0x00, 0x08, 0x00,
  0x00, 0x00, 0x04, 0x00, 0x12, 0x00, 0x00, 0x00, 0x18, 0x00, 0x00, 0x00,
  0x48, 0x00, 0x00, 0x00, 0xb0, 0x05, 0x00, 0x00, 0xc0, 0x05, 0x00, 0x00,
  0xc4, 0x0c, 0x00, 0x00, 0x03, 0x00, 0x00, 0x00, 0x01, 0x00, 0x00, 0x00,
  0x0c, 0x00, 0x00, 0x00, 0x08, 0x00, 0x0c, 0x00, 0x08, 0x00, 0x04, 0x00,
  0x08, 0x00, 0x00, 0x00, 0x0b, 0x00, 0x00, 0x00, 0x04, 0x00, 0x00, 0x00,
  0x13, 0x00, 0x00, 0x00, 0x6d, 0x69, 0x6e, 0x5f, 0x72, 0x75, 0x6e, 0x74,
  0x69, 0x6d, 0x65, 0x5f, 0x76, 0x65, 0x72, 0x73, 0x69, 0x6f, 0x6e, 0x00,
  0x0c, 0x00, 0x00, 0x00, 0x64, 0x05, 0x00, 0x00, 0x5c, 0x05, 0x00, 0x00,
  0xd4, 0x04, 0x00, 0x00, 0x44, 0x04, 0x00, 0x00, 0x30, 0x04, 0x00, 0x00,
  0x00, 0x04, 0x00, 0x00, 0x6c, 0x00, 0x00, 0x00, 0x3c, 0x00, 0x00, 0x00,
  0x34, 0x00, 0x00, 0x00, 0x2c, 0x00, 0x00, 0x00, 0x24, 0x00, 0x00, 0x00,
  0x04, 0x00, 0x00, 0x00, 0x5a, 0xfb, 0xff, 0xff, 0x04, 0x00, 0x00, 0x00,
  0x10, 0x00, 0x00, 0x00, 0x31, 0x2e, 0x35, 0x2e, 0x30, 0x00, 0x00, 0x00,
  0x00, 0x00, 0x00, 0x00, 0x00, 0x00, 0x00, 0x00, 0x70, 0xfa, 0xff, 0xff,
  0x74, 0xfa, 0xff, 0xff, 0x78, 0xfa, 0xff, 0xff, 0x82, 0xfb, 0xff, 0xff,
  0x04, 0x00, 0x00, 0x00, 0x1e, 0x00, 0x00, 0x00, 0x2e, 0xd3, 0x47, 0x16,
  0xf6, 0xf5, 0x60, 0x2c, 0x59, 0x02, 0xdd, 0x4f, 0x07, 0x43, 0x61, 0xcf,
  0xde, 0x2f, 0xdf, 0xb3, 0x59, 0xc2, 0xdd, 0x7f, 0x66, 0xe2, 0x3f, 0xd3,
  0xee, 0xd2, 0x00, 0x00, 0xae, 0xfb, 0xff, 0xff, 0x04, 0x00, 0x00, 0x00,
  0x84, 0x03, 0x00, 0x00, 0xc3, 0x1e, 0x35, 0x93, 0x3a, 0xdb, 0xd7, 0xf6,
  0x32, 0x28, 0x12, 0x44, 0xd8, 0x48, 0x22, 0xee, 0x46, 0xef, 0xe8, 0x0c,
  0x29, 0x04, 0xc1, 0x1f, 0x49, 0xbd, 0xe5, 0x41, 0xe1, 0xd0, 0x27, 0x2a,
  0x44, 0xf1, 0x4a, 0x38, 0x12, 0xbc, 0xc4, 0xdc, 0xf1, 0xdc, 0xca, 0x07,
  0xeb, 0xd4, 0xbb, 0xc3, 0x03, 0x1e, 0x1c, 0xe1, 0xdd, 0xbc, 0xe7, 0xe4,
  0x47, 0xc4, 0x1a, 0xbf, 0xfa, 0xed, 0x31, 0x0a, 0xcf, 0x2b, 0xc9, 0x36,
  0x31, 0x46, 0x56, 0xd4, 0x28, 0x3a, 0x47, 0x3a, 0xee, 0x20, 0x29, 0x1a,
  0x44, 0xca, 0xcf, 0xb9, 0x25, 0x0d, 0xb9, 0x23, 0x28, 0xb2, 0xe1, 0xf8,
  0x10, 0x15, 0x04, 0xe1, 0x45, 0x48, 0x11, 0x05, 0x0c, 0x2d, 0x0a, 0xfe,
  0x1e, 0xe9, 0x27, 0xce, 0xf2, 0x43, 0xf4, 0xfc, 0xe4, 0x22, 0xfd, 0x32,
  0x05, 0x44, 0xe3, 0xff, 0x16, 0xed, 0xc6, 0xe0, 0xc4, 0xb6, 0x11, 0x09,
  0x37, 0xde, 0x28, 0xbd, 0xbb, 0x3f, 0xd6, 0xef, 0xc6, 0xe8, 0xd6, 0x32,
  0x2b, 0x1f, 0x04, 0xcd, 0xeb, 0x02, 0x12, 0x08, 0xde, 0xf8, 0x5e, 0x1c,
  0x1f, 0x41, 0x43, 0x19, 0xc2, 0x14, 0xd0, 0xfb, 0x08, 0x17, 0xf8, 0x09,
  0x21, 0x16, 0x26, 0x0a, 0xad, 0xcb, 0x2b, 0xb8, 0x3b, 0x36, 0x3e, 0x05,
  0xd6, 0xbd, 0x38, 0xfc, 0x13, 0xc6, 0xc9, 0xe1, 0xf7, 0xd1, 0x35, 0xda,
  0xeb, 0x3e, 0x3f, 0x42, 0xe8, 0xd4, 0xed, 0x17, 0x17, 0xcc, 0x59, 0xe9,
  0xbe, 0xc8, 0x38, 0x20, 0x52, 0xcd, 0x0f, 0xec, 0x44, 0xab, 0x90, 0x36,
  0xb7, 0xc2, 0xef, 0xf5, 0xbd, 0x29, 0x1f, 0x25, 0x55, 0xbe, 0xe5, 0x26,
  0xc7, 0x3a, 0x1c, 0x06, 0x5d, 0x38, 0x12, 0xfa, 0x3d, 0xd6, 0x1a, 0xe6,
  0xba, 0xf2, 0x1d, 0x98, 0x50, 0xf7, 0x18, 0x3c, 0x2f, 0xfd, 0x2e, 0x2d,
  0xec, 0xae, 0xad, 0x21, 0x5d, 0x12, 0x2f, 0xee, 0xdf, 0xd8, 0xe0, 0xd9,
  0x26, 0x41, 0xa3, 0xd7, 0xfc, 0x1f, 0xc7, 0x04, 0x3c, 0x21, 0xfb, 0x3b,
  0xde, 0xfa, 0xca, 0xb6, 0xc4, 0xc9, 0xe5, 0xe6, 0xc6, 0xd5, 0xf7, 0x0c,
  0xef, 0x01, 0xc5, 0x16, 0x08, 0xe0, 0x31, 0x46, 0x43, 0x02, 0xdb, 0xf8,
  0x2f, 0xfa, 0xe1, 0xc7, 0x28, 0xff, 0xcd, 0x0d, 0xbf, 0x2a, 0x03, 0xcf,
  0xfe, 0x16, 0xe8, 0xb8, 0x23, 0xb6, 0xfa, 0xed, 0xbe, 0x28, 0xd3, 0x43,
  0xf7, 0x3f, 0x9b, 0xbb, 0xb5, 0xc8, 0x18, 0xd2, 0x40, 0xd7, 0x4e, 0xe0,
  0x1a, 0x5e, 0xe2, 0xd1, 0xff, 0xdc, 0x15, 0x9c, 0xac, 0x4e, 0x70, 0x31,
  0x07, 0xcf, 0xe8, 0x0b, 0x8d, 0x3e, 0x14, 0x1e, 0xd0, 0x0d, 0xef, 0xe3,
  0x09, 0x0a, 0x36, 0x25, 0xed, 0xe9, 0xe9, 0x17, 0x0e, 0xd4, 0xc3, 0xdd,
  0x20, 0xc0, 0xcc, 0x42, 0xf1, 0xc0, 0xe6, 0x3e, 0x09, 0xd8, 0x3f, 0x17,
  0x43, 0xdb, 0xc6, 0x09, 0x14, 0x45, 0x0e, 0x3c, 0x06, 0xcd, 0xff, 0xe2,
  0xc3, 0x21, 0xda, 0xf4, 0xc0, 0x14, 0xdf, 0xf4, 0xc5, 0xe5, 0x4c, 0x3f,
  0x28, 0x05, 0xf1, 0x15, 0x3d, 0x2b, 0xb8, 0x45, 0x2a, 0xef, 0xd6, 0xc9,
  0xc8, 0xb9, 0x02, 0x62, 0x79, 0xf0, 0x1e, 0x0b, 0xda, 0x1b, 0xd0, 0xcd,
  0xa8, 0xfd, 0x15, 0x08, 0x7f, 0x36, 0xe2, 0xff, 0xe3, 0xf8, 0x95, 0xce,
  0x0b, 0xd5, 0xf7, 0xdd, 0xd0, 0x30, 0xee, 0x00, 0xd1, 0x55, 0xf4, 0xd4,
  0x0e, 0xb2, 0x47, 0xc9, 0xdc, 0xb4, 0xf6, 0xc1, 0x29, 0x3a, 0x3b, 0x01,
  0xd8, 0x39, 0xc3, 0x3c, 0xb6, 0x34, 0xc6, 0x30, 0x3f, 0xbb, 0x48, 0x1d,
  0x06, 0xbb, 0xed, 0x24, 0x59, 0x34, 0x32, 0x0b, 0x0b, 0x3a, 0xb3, 0xc1,
  0x17, 0x18, 0xb2, 0x19, 0x49, 0xc0, 0x46, 0xf6, 0x1e, 0xee, 0xb1, 0xcf,
  0x2b, 0xf2, 0x0f, 0xd3, 0xe0, 0xe9, 0x00, 0xd6, 0x4e, 0x14, 0xe4, 0x0f,
  0xf1, 0x2f, 0xe3, 0xce, 0xfe, 0xd6, 0xd4, 0xf8, 0x3f, 0xf9, 0x02, 0x41,
  0xc0, 0x3d, 0x2a, 0xe0, 0xe3, 0x00, 0xd6, 0x37, 0xc5, 0xf3, 0x04, 0xd2,
  0xe3, 0x42, 0xc7, 0xde, 0x2f, 0xe1, 0xe2, 0x7b, 0xf0, 0xec, 0x24, 0x3d,
  0x02, 0xc9, 0x91, 0xbe, 0x65, 0x06, 0x38, 0x32, 0xf8, 0xd1, 0xe3, 0xb9,
  0xc4, 0xc5, 0x3f, 0xbe, 0x02, 0x12, 0xe1, 0x3e, 0x40, 0x7b, 0x26, 0x12,
  0x39, 0x6f, 0xc5, 0x0c, 0x38, 0x17, 0x10, 0x2f, 0xbb, 0xdf, 0x2c, 0x10,
  0xc8, 0xf4, 0x09, 0xe0, 0xb0, 0xb8, 0xd5, 0xd7, 0xc0, 0x1f, 0xe5, 0x2b,
  0xb6, 0x05, 0x04, 0x3e, 0xa5, 0x21, 0xc1, 0x9d, 0x25, 0x2f, 0xfd, 0x4a,
  0xdd, 0x3f, 0x66, 0x31, 0xe9, 0x3a, 0xd1, 0xe9, 0x40, 0x08, 0x1e, 0x11,
  0xe3, 0xb7, 0x12, 0xf8, 0x32, 0xc8, 0x46, 0x27, 0xf4, 0xfd, 0x5c, 0xea,
  0x2a, 0x10, 0xe2, 0x47, 0x33, 0xd0, 0xdd, 0xe6, 0x0a, 0x16, 0x51, 0xdc,
  0x2e, 0xba, 0x09, 0xcf, 0x3a, 0xf7, 0x14, 0xf6, 0x1f, 0xba, 0x3f, 0x44,
  0xd3, 0xdc, 0xc2, 0x21, 0x35, 0x13, 0x44, 0x37, 0x38, 0x11, 0x11, 0x28,
  0x0b, 0xe3, 0xb1, 0xe9, 0x35, 0x14, 0xdc, 0xcb, 0xeb, 0x13, 0xf2, 0xff,
  0x45, 0x32, 0xd7, 0x2a, 0xdb, 0x23, 0xe3, 0x46, 0x24, 0x34, 0x3d, 0x11,
  0xe9, 0x76, 0xbb, 0xd8, 0xf7, 0xc3, 0xd4, 0xe9, 0xfc, 0xc7, 0x5d, 0xd9,
  0x09, 0xc6, 0xd7, 0x34, 0xfa, 0x2a, 0x1a, 0xbc, 0xa2, 0xd9, 0xb8, 0x3b,
  0xce, 0x43, 0x24, 0x7b, 0x47, 0x3d, 0xec, 0x6f, 0x44, 0x00, 0x07, 0x0c,
  0xbe, 0xc8, 0x51, 0xd4, 0x08, 0xb2, 0xda, 0x28, 0x0e, 0xb8, 0xc3, 0x26,
  0xd5, 0x11, 0xbb, 0x14, 0xcb, 0x33, 0xc4, 0xee, 0x22, 0x42, 0x48, 0x29,
  0x11, 0x07, 0x2d, 0x28, 0xb5, 0xe5, 0x3a, 0x26, 0x25, 0xce, 0x28, 0x0f,
  0x11, 0x30, 0xee, 0x00, 0xd1, 0x37, 0xce, 0xc1, 0x3e, 0x18, 0xca, 0x2e,
  0xb7, 0x27, 0xfd, 0xdd, 0xe9, 0xe0, 0xd2, 0xc2, 0x05, 0x26, 0xfc, 0x3d,
  0xbb, 0xff, 0x14, 0xc1, 0x10, 0x07, 0xe3, 0xbd, 0x16, 0xc2, 0x01, 0x26,
  0xf0, 0x0f, 0xc9, 0xc6, 0x4a, 0xe9, 0x28, 0xbd, 0x4a, 0x02, 0x11, 0xeb,
  0x3e, 0x53, 0x3b, 0x1e, 0x20, 0x2c, 0xb7, 0xae, 0x03, 0xc7, 0x5d, 0xfa,
  0x46, 0xe2, 0x37, 0x10, 0xdf, 0x1b, 0xf1, 0x27, 0x13, 0x20, 0x22, 0xc4,
  0x16, 0x06, 0xe5, 0x14, 0x1f, 0xfa, 0x31, 0x57, 0x13, 0xc0, 0xc5, 0x0b,
  0xbd, 0x26, 0xff, 0x0c, 0x16, 0xdc, 0x1f, 0xfa, 0x40, 0x01, 0x1c, 0xfc,
  0x37, 0x07, 0x3e, 0x07, 0xdd, 0x11, 0xb3, 0x07, 0x4e, 0x02, 0x28, 0xc7,
  0xd9, 0xe8, 0x21, 0xf0, 0x0e, 0xf3, 0xf8, 0xe4, 0x14, 0x18, 0x0a, 0x25,
  0xc8, 0x30, 0x35, 0xd2, 0x00, 0x0e, 0x13, 0xc1, 0xdc, 0x0f, 0xf8, 0x29,
  0xf7, 0x1d, 0x3d, 0x11, 0x3e, 0xff, 0xff, 0xff, 0x04, 0x00, 0x00, 0x00,
  0x1e, 0x00, 0x00, 0x00, 0xfe, 0xb2, 0x54, 0xfa, 0x8f, 0x02, 0xdf, 0x48,
  0x54, 0x7f, 0x3d, 0xb3, 0x0a, 0xb7, 0xbc, 0xaa, 0xbb, 0xfc, 0x47, 0xfc,
  0xbc, 0xe5, 0x35, 0xc9, 0x62, 0xfa, 0xd7, 0xab, 0xbd, 0xf9, 0x00, 0x00,
  0x6a, 0xff, 0xff, 0xff, 0x04, 0x00, 0x00, 0x00, 0x04, 0x00, 0x00, 0x00,
  0xb6, 0xf4, 0xff, 0xff, 0x7a, 0xff, 0xff, 0xff, 0x04, 0x00, 0x00, 0x00,
  0x78, 0x00, 0x00, 0x00, 0x24, 0xeb, 0xff, 0xff, 0x4b, 0xfe, 0xff, 0xff,
  0x62, 0xf1, 0xff, 0xff, 0x37, 0xf0, 0xff, 0xff, 0x00, 0x00, 0x00, 0x00,
  0x3a, 0x0f, 0x00, 0x00, 0x2c, 0xe5, 0xff, 0xff, 0xf5, 0xe2, 0xff, 0xff,
  0xd4, 0x13, 0x00, 0x00, 0x00, 0x00, 0x00, 0x00, 0xf8, 0xfb, 0xff, 0xff,
  0x23, 0x17, 0x00, 0x00, 0x00, 0x00, 0x00, 0x00, 0xff, 0x0f, 0x00, 0x00,
  0x63, 0x15, 0x00, 0x00, 0x41, 0xff, 0xff, 0xff, 0xa4, 0x14, 0x00, 0x00,
  0x00, 0x00, 0x00, 0x00, 0x1e, 0x17, 0x00, 0x00, 0x77, 0x10, 0x00, 0x00,
  0x59, 0xe0, 0xff, 0xff, 0x63, 0x0f, 0x00, 0x00, 0x38, 0x13, 0x00, 0x00,
  0x4f, 0x13, 0x00, 0x00, 0xcb, 0x11, 0x00, 0x00, 0xde, 0x0e, 0x00, 0x00,
  0x00, 0x00, 0x00, 0x00, 0xe4, 0x12, 0x00, 0x00, 0xbe, 0x0e, 0x00, 0x00,
  0x73, 0xfc, 0xff, 0xff, 0x00, 0x00, 0x06, 0x00, 0x08, 0x00, 0x04, 0x00,
  0x06, 0x00, 0x00, 0x00, 0x04, 0x00, 0x00, 0x00, 0x78, 0x00, 0x00, 0x00,
  0xce, 0x10, 0x00, 0x00, 0x57, 0xfe, 0xff, 0xff, 0x70, 0x0c, 0x00, 0x00,
  0xe5, 0x12, 0x00, 0x00, 0x13, 0xff, 0xff, 0xff, 0xa6, 0x04, 0x00, 0x00,
  0x33, 0xff, 0xff, 0xff, 0x71, 0xfb, 0xff, 0xff, 0x94, 0xf9, 0xff, 0xff,
  0x60, 0xf0, 0xff, 0xff, 0x41, 0xef, 0xff, 0xff, 0xf5, 0xfd, 0xff, 0xff,
  0xc1, 0x10, 0x00, 0x00, 0xa1, 0xfe, 0xff, 0xff, 0x99, 0xfe, 0xff, 0xff,
  0x61, 0xfe, 0xff, 0xff, 0xed, 0x00, 0x00, 0x00, 0xc8, 0xfe, 0xff, 0xff,
  0x4e, 0xf1, 0xff, 0xff, 0xbb, 0xfe, 0xff, 0xff, 0xb5, 0xfe, 0xff, 0xff,
  0xbe, 0xfe, 0xff, 0xff, 0x05, 0xfe, 0xff, 0xff, 0x0c, 0x00, 0x00, 0x00,
  0x67, 0xf0, 0xff, 0xff, 0xcd, 0xfe, 0xff, 0xff, 0x31, 0xff, 0xff, 0xff,
  0x6a, 0xfe, 0xff, 0xff, 0xbf, 0xfe, 0xff, 0xff, 0x4f, 0x10, 0x00, 0x00,
  0x84, 0xff, 0xff, 0xff, 0x88, 0xff, 0xff, 0xff, 0x0f, 0x00, 0x00, 0x00,
  0x4d, 0x4c, 0x49, 0x52, 0x20, 0x43, 0x6f, 0x6e, 0x76, 0x65, 0x72, 0x74,
  0x65, 0x64, 0x2e, 0x00, 0x01, 0x00, 0x00, 0x00, 0x14, 0x00, 0x00, 0x00,
  0x00, 0x00, 0x0e, 0x00, 0x18, 0x00, 0x14, 0x00, 0x10, 0x00, 0x0c, 0x00,
  0x08, 0x00, 0x04, 0x00, 0x0e, 0x00, 0x00, 0x00, 0x14, 0x00, 0x00, 0x00,
  0x1c, 0x00, 0x00, 0x00, 0xdc, 0x00, 0x00, 0x00, 0xe0, 0x00, 0x00, 0x00,
  0xe4, 0x00, 0x00, 0x00, 0x04, 0x00, 0x00, 0x00, 0x6d, 0x61, 0x69, 0x6e,
  0x00, 0x00, 0x00, 0x00, 0x03, 0x00, 0x00, 0x00, 0x84, 0x00, 0x00, 0x00,
  0x3c, 0x00, 0x00, 0x00, 0x04, 0x00, 0x00, 0x00, 0x96, 0xff, 0xff, 0xff,
  0x14, 0x00, 0x00, 0x00, 0x00, 0x00, 0x00, 0x08, 0x10, 0x00, 0x00, 0x00,
  0x14, 0x00, 0x00, 0x00, 0x04, 0x00, 0x04, 0x00, 0x04, 0x00, 0x00, 0x00,
  0x01, 0x00, 0x00, 0x00, 0x09, 0x00, 0x00, 0x00, 0x03, 0x00, 0x00, 0x00,
  0x08, 0x00, 0x00, 0x00, 0x06, 0x00, 0x00, 0x00, 0x03, 0x00, 0x00, 0x00,
  0xca, 0xff, 0xff, 0xff, 0x10, 0x00, 0x00, 0x00, 0x00, 0x00, 0x00, 0x08,
  0x10, 0x00, 0x00, 0x00, 0x14, 0x00, 0x00, 0x00, 0xba, 0xff, 0xff, 0xff,
  0x00, 0x00, 0x00, 0x01, 0x01, 0x00, 0x00, 0x00, 0x08, 0x00, 0x00, 0x00,
  0x03, 0x00, 0x00, 0x00, 0x07, 0x00, 0x00, 0x00, 0x05, 0x00, 0x00, 0x00,
  0x02, 0x00, 0x00, 0x00, 0x00, 0x00, 0x0e, 0x00, 0x16, 0x00, 0x00, 0x00,
  0x10, 0x00, 0x0c, 0x00, 0x0b, 0x00, 0x04, 0x00, 0x0e, 0x00, 0x00, 0x00,
  0x18, 0x00, 0x00, 0x00, 0x00, 0x00, 0x00, 0x08, 0x18, 0x00, 0x00, 0x00,
  0x1c, 0x00, 0x00, 0x00, 0x00, 0x00, 0x06, 0x00, 0x08, 0x00, 0x07, 0x00,
  0x06, 0x00, 0x00, 0x00, 0x00, 0x00, 0x00, 0x01, 0x01, 0x00, 0x00, 0x00,
  0x07, 0x00, 0x00, 0x00, 0x03, 0x00, 0x00, 0x00, 0x00, 0x00, 0x00, 0x00,
  0x04, 0x00, 0x00, 0x00, 0x01, 0x00, 0x00, 0x00, 0x01, 0x00, 0x00, 0x00,
  0x09, 0x00, 0x00, 0x00, 0x01, 0x00, 0x00, 0x00, 0x00, 0x00, 0x00, 0x00,
  0x0a, 0x00, 0x00, 0x00, 0x64, 0x05, 0x00, 0x00, 0xc0, 0x04, 0x00, 0x00,
  0x30, 0x04, 0x00, 0x00, 0xac, 0x03, 0x00, 0x00, 0x28, 0x03, 0x00, 0x00,
  0xa4, 0x02, 0x00, 0x00, 0x20, 0x02, 0x00, 0x00, 0x54, 0x01, 0x00, 0x00,
  0x88, 0x00, 0x00, 0x00, 0x04, 0x00, 0x00, 0x00, 0xd8, 0xfa, 0xff, 0xff,
  0x18, 0x00, 0x00, 0x00, 0x20, 0x00, 0x00, 0x00, 0x54, 0x00, 0x00, 0x00,
  0x0a, 0x00, 0x00, 0x00, 0x00, 0x00, 0x00, 0x09, 0x5c, 0x00, 0x00, 0x00,
  0x02, 0x00, 0x00, 0x00, 0xff, 0xff, 0xff, 0xff, 0x01, 0x00, 0x00, 0x00,
  0xc4, 0xfa, 0xff, 0xff, 0x10, 0x00, 0x00, 0x00, 0x18, 0x00, 0x00, 0x00,
  0x1c, 0x00, 0x00, 0x00, 0x20, 0x00, 0x00, 0x00, 0x01, 0x00, 0x00, 0x00,
  0xf7, 0xff, 0xff, 0xff, 0xff, 0xff, 0xff, 0xff, 0x01, 0x00, 0x00, 0x00,
  0x4e, 0xfb, 0x0a, 0x3c, 0x01, 0x00, 0x00, 0x00, 0xa8, 0xe8, 0x93, 0x3f,
  0x01, 0x00, 0x00, 0x00, 0xfe, 0xf7, 0x80, 0xbf, 0x0d, 0x00, 0x00, 0x00,
  0x49, 0x64, 0x65, 0x6e, 0x74, 0x69, 0x74, 0x79, 0x5f, 0x69, 0x6e, 0x74,
  0x38, 0x00, 0x00, 0x00, 0x02, 0x00, 0x00, 0x00, 0x01, 0x00, 0x00, 0x00,
  0x01, 0x00, 0x00, 0x00, 0x58, 0xfb, 0xff, 0xff, 0x18, 0x00, 0x00, 0x00,
  0x20, 0x00, 0x00, 0x00, 0x58, 0x00, 0x00, 0x00, 0x09, 0x00, 0x00, 0x00,
  0x00, 0x00, 0x00, 0x09, 0xa4, 0x00, 0x00, 0x00, 0x02, 0x00, 0x00, 0x00,
  0xff, 0xff, 0xff, 0xff, 0x1e, 0x00, 0x00, 0x00, 0x44, 0xfb, 0xff, 0xff,
  0x10, 0x00, 0x00, 0x00, 0x1c, 0x00, 0x00, 0x00, 0x20, 0x00, 0x00, 0x00,
  0x24, 0x00, 0x00, 0x00, 0x01, 0x00, 0x00, 0x00, 0x80, 0xff, 0xff, 0xff,
  0xff, 0xff, 0xff, 0xff, 0x00, 0x00, 0x00, 0x00, 0x01, 0x00, 0x00, 0x00,
  0xdc, 0xab, 0x25, 0x3c, 0x01, 0x00, 0x00, 0x00, 0x30, 0x06, 0x25, 0x40,
  0x01, 0x00, 0x00, 0x00, 0x00, 0x00, 0x00, 0x00, 0x52, 0x00, 0x00, 0x00,
  0x73, 0x65, 0x71, 0x75, 0x65, 0x6e, 0x74, 0x69, 0x61, 0x6c, 0x5f, 0x32,
  0x2f, 0x64, 0x65, 0x6e, 0x73, 0x65, 0x5f, 0x37, 0x2f, 0x4d, 0x61, 0x74,
  0x4d, 0x75, 0x6c, 0x3b, 0x73, 0x65, 0x71, 0x75, 0x65, 0x6e, 0x74, 0x69,
  0x61, 0x6c, 0x5f, 0x32, 0x2f, 0x64, 0x65, 0x6e, 0x73, 0x65, 0x5f, 0x37,
  0x2f, 0x52, 0x65, 0x6c, 0x75, 0x3b, 0x73, 0x65, 0x71, 0x75, 0x65, 0x6e,
  0x74, 0x69, 0x61, 0x6c, 0x5f, 0x32, 0x2f, 0x64, 0x65, 0x6e, 0x73, 0x65,
  0x5f, 0x37, 0x2f, 0x42, 0x69, 0x61, 0x73, 0x41, 0x64, 0x64, 0x00, 0x00,
  0x02, 0x00, 0x00, 0x00, 0x01, 0x00, 0x00, 0x00, 0x1e, 0x00, 0x00, 0x00,
  0x20, 0xfc, 0xff, 0xff, 0x18, 0x00, 0x00, 0x00, 0x20, 0x00, 0x00, 0x00,
  0x58, 0x00, 0x00, 0x00, 0x08, 0x00, 0x00, 0x00, 0x00, 0x00, 0x00, 0x09,
  0xa4, 0x00, 0x00, 0x00, 0x02, 0x00, 0x00, 0x00, 0xff, 0xff, 0xff, 0xff,
  0x1e, 0x00, 0x00, 0x00, 0x0c, 0xfc, 0xff, 0xff, 0x10, 0x00, 0x00, 0x00,
  0x1c, 0x00, 0x00, 0x00, 0x20, 0x00, 0x00, 0x00, 0x24, 0x00, 0x00, 0x00,
  0x01, 0x00, 0x00, 0x00, 0x80, 0xff, 0xff, 0xff, 0xff, 0xff, 0xff, 0xff,
  0x00, 0x00, 0x00, 0x00, 0x01, 0x00, 0x00, 0x00, 0x7f, 0x71, 0x29, 0x3c,
  0x01, 0x00, 0x00, 0x00, 0x0e, 0xc8, 0x28, 0x40, 0x01, 0x00, 0x00, 0x00,
  0x00, 0x00, 0x00, 0x00, 0x52, 0x00, 0x00, 0x00, 0x73, 0x65, 0x71, 0x75,
  0x65, 0x6e, 0x74, 0x69, 0x61, 0x6c, 0x5f, 0x32, 0x2f, 0x64, 0x65, 0x6e,
  0x73, 0x65, 0x5f, 0x36, 0x2f, 0x4d, 0x61, 0x74, 0x4d, 0x75, 0x6c, 0x3b,
  0x73, 0x65, 0x71, 0x75, 0x65, 0x6e, 0x74, 0x69, 0x61, 0x6c, 0x5f, 0x32,
  0x2f, 0x64, 0x65, 0x6e, 0x73, 0x65, 0x5f, 0x36, 0x2f, 0x52, 0x65, 0x6c,
  0x75, 0x3b, 0x73, 0x65, 0x71, 0x75, 0x65, 0x6e, 0x74, 0x69, 0x61, 0x6c,
  0x5f, 0x32, 0x2f, 0x64, 0x65, 0x6e, 0x73, 0x65, 0x5f, 0x36, 0x2f, 0x42,
  0x69, 0x61, 0x73, 0x41, 0x64, 0x64, 0x00, 0x00, 0x02, 0x00, 0x00, 0x00,
  0x01, 0x00, 0x00, 0x00, 0x1e, 0x00, 0x00, 0x00, 0x82, 0xfd, 0xff, 0xff,
  0x14, 0x00, 0x00, 0x00, 0x4c, 0x00, 0x00, 0x00, 0x07, 0x00, 0x00, 0x00,
  0x00, 0x00, 0x00, 0x09, 0x60, 0x00, 0x00, 0x00, 0xc4, 0xfc, 0xff, 0xff,
  0x10, 0x00, 0x00, 0x00, 0x1c, 0x00, 0x00, 0x00, 0x20, 0x00, 0x00, 0x00,
  0x24, 0x00, 0x00, 0x00, 0x01, 0x00, 0x00, 0x00, 0x00, 0x00, 0x00, 0x00,
  0x00, 0x00, 0x00, 0x00, 0x00, 0x00, 0x00, 0x00, 0x01, 0x00, 0x00, 0x00,
  0xb7, 0x67, 0xc5, 0x3b, 0x01, 0x00, 0x00, 0x00, 0xe8, 0xdc, 0x43, 0x3f,
  0x01, 0x00, 0x00, 0x00, 0x30, 0x17, 0xec, 0xbe, 0x1b, 0x00, 0x00, 0x00,
  0x73, 0x65, 0x71, 0x75, 0x65, 0x6e, 0x74, 0x69, 0x61, 0x6c, 0x5f, 0x32,
  0x2f, 0x64, 0x65, 0x6e, 0x73, 0x65, 0x5f, 0x38, 0x2f, 0x4d, 0x61, 0x74,
  0x4d, 0x75, 0x6c, 0x00, 0x02, 0x00, 0x00, 0x00, 0x01, 0x00, 0x00, 0x00,
  0x1e, 0x00, 0x00, 0x00, 0x02, 0xfe, 0xff, 0xff, 0x14, 0x00, 0x00, 0x00,
  0x4c, 0x00, 0x00, 0x00, 0x06, 0x00, 0x00, 0x00, 0x00, 0x00, 0x00, 0x09,
  0x60, 0x00, 0x00, 0x00, 0x44, 0xfd, 0xff, 0xff, 0x10, 0x00, 0x00, 0x00,
  0x1c, 0x00, 0x00, 0x00, 0x20, 0x00, 0x00, 0x00, 0x24, 0x00, 0x00, 0x00,
  0x01, 0x00, 0x00, 0x00, 0x00, 0x00, 0x00, 0x00, 0x00, 0x00, 0x00, 0x00,
  0x00, 0x00, 0x00, 0x00, 0x01, 0x00, 0x00, 0x00, 0x09, 0x47, 0x8b, 0x3b,
  0x01, 0x00, 0x00, 0x00, 0x7b, 0x30, 0x0a, 0x3f, 0x01, 0x00, 0x00, 0x00,
  0xd5, 0xda, 0xf9, 0xbe, 0x1b, 0x00, 0x00, 0x00, 0x73, 0x65, 0x71, 0x75,
  0x65, 0x6e, 0x74, 0x69, 0x61, 0x6c, 0x5f, 0x32, 0x2f, 0x64, 0x65, 0x6e,
  0x73, 0x65, 0x5f, 0x37, 0x2f, 0x4d, 0x61, 0x74, 0x4d, 0x75, 0x6c, 0x00,
  0x02, 0x00, 0x00, 0x00, 0x1e, 0x00, 0x00, 0x00, 0x1e, 0x00, 0x00, 0x00,
  0x82, 0xfe, 0xff, 0xff, 0x14, 0x00, 0x00, 0x00, 0x4c, 0x00, 0x00, 0x00,
  0x05, 0x00, 0x00, 0x00, 0x00, 0x00, 0x00, 0x09, 0x60, 0x00, 0x00, 0x00,
  0xc4, 0xfd, 0xff, 0xff, 0x10, 0x00, 0x00, 0x00, 0x1c, 0x00, 0x00, 0x00,
  0x20, 0x00, 0x00, 0x00, 0x24, 0x00, 0x00, 0x00, 0x01, 0x00, 0x00, 0x00,
  0x00, 0x00, 0x00, 0x00, 0x00, 0x00, 0x00, 0x00, 0x00, 0x00, 0x00, 0x00,
  0x01, 0x00, 0x00, 0x00, 0x8c, 0x82, 0x7c, 0x3b, 0x01, 0x00, 0x00, 0x00,
  0x87, 0x89, 0xfa, 0x3e, 0x01, 0x00, 0x00, 0x00, 0xc8, 0xbe, 0xde, 0xbe,
  0x1b, 0x00, 0x00, 0x00, 0x73, 0x65, 0x71, 0x75, 0x65, 0x6e, 0x74, 0x69,
  0x61, 0x6c, 0x5f, 0x32, 0x2f, 0x64, 0x65, 0x6e, 0x73, 0x65, 0x5f, 0x36,
  0x2f, 0x4d, 0x61, 0x74, 0x4d, 0x75, 0x6c, 0x00, 0x02, 0x00, 0x00, 0x00,
  0x1e, 0x00, 0x00, 0x00, 0x01, 0x00, 0x00, 0x00, 0x02, 0xff, 0xff, 0xff,
  0x14, 0x00, 0x00, 0x00, 0x34, 0x00, 0x00, 0x00, 0x04, 0x00, 0x00, 0x00,
  0x00, 0x00, 0x00, 0x02, 0x64, 0x00, 0x00, 0x00, 0xf4, 0xfe, 0xff, 0xff,
  0x08, 0x00, 0x00, 0x00, 0x14, 0x00, 0x00, 0x00, 0x01, 0x00, 0x00, 0x00,
  0x00, 0x00, 0x00, 0x00, 0x00, 0x00, 0x00, 0x00, 0x00, 0x00, 0x00, 0x00,
  0x01, 0x00, 0x00, 0x00, 0xbe, 0x80, 0x7f, 0x38, 0x34, 0x00, 0x00, 0x00,
  0x73, 0x65, 0x71, 0x75, 0x65, 0x6e, 0x74, 0x69, 0x61, 0x6c, 0x5f, 0x32,
  0x2f, 0x64, 0x65, 0x6e, 0x73, 0x65, 0x5f, 0x38, 0x2f, 0x42, 0x69, 0x61,
  0x73, 0x41, 0x64, 0x64, 0x2f, 0x52, 0x65, 0x61, 0x64, 0x56, 0x61, 0x72,
  0x69, 0x61, 0x62, 0x6c, 0x65, 0x4f, 0x70, 0x2f, 0x72, 0x65, 0x73, 0x6f,
  0x75, 0x72, 0x63, 0x65, 0x00, 0x00, 0x00, 0x00, 0x01, 0x00, 0x00, 0x00,
  0x01, 0x00, 0x00, 0x00, 0x82, 0xff, 0xff, 0xff, 0x14, 0x00, 0x00, 0x00,
  0x30, 0x00, 0x00, 0x00, 0x03, 0x00, 0x00, 0x00, 0x00, 0x00, 0x00, 0x02,
  0x60, 0x00, 0x00, 0x00, 0x74, 0xff, 0xff, 0xff, 0x08, 0x00, 0x00, 0x00,
  0x10, 0x00, 0x00, 0x00, 0x01, 0x00, 0x00, 0x00, 0x00, 0x00, 0x00, 0x00,
  0x00, 0x00, 0x00, 0x00, 0x01, 0x00, 0x00, 0x00, 0x49, 0x5f, 0x38, 0x38,
  0x34, 0x00, 0x00, 0x00, 0x73, 0x65, 0x71, 0x75, 0x65, 0x6e, 0x74, 0x69,
  0x61, 0x6c, 0x5f, 0x32, 0x2f, 0x64, 0x65, 0x6e, 0x73, 0x65, 0x5f, 0x37,
  0x2f, 0x42, 0x69, 0x61, 0x73, 0x41, 0x64, 0x64, 0x2f, 0x52, 0x65, 0x61,
  0x64, 0x56, 0x61, 0x72, 0x69, 0x61, 0x62, 0x6c, 0x65, 0x4f, 0x70, 0x2f,
  0x72, 0x65, 0x73, 0x6f, 0x75, 0x72, 0x63, 0x65, 0x00, 0x00, 0x00, 0x00,
  0x01, 0x00, 0x00, 0x00, 0x1e, 0x00, 0x00, 0x00, 0x00, 0x00, 0x0e, 0x00,
  0x18, 0x00, 0x14, 0x00, 0x13, 0x00, 0x0c, 0x00, 0x08, 0x00, 0x04, 0x00,
  0x0e, 0x00, 0x00, 0x00, 0x20, 0x00, 0x00, 0x00, 0x40, 0x00, 0x00, 0x00,
  0x02, 0x00, 0x00, 0x00, 0x00, 0x00, 0x00, 0x02, 0x70, 0x00, 0x00, 0x00,
  0x0c, 0x00, 0x0c, 0x00, 0x00, 0x00, 0x00, 0x00, 0x08, 0x00, 0x04, 0x00,
  0x0c, 0x00, 0x00, 0x00, 0x08, 0x00, 0x00, 0x00, 0x14, 0x00, 0x00, 0x00,
  0x01, 0x00, 0x00, 0x00, 0x00, 0x00, 0x00, 0x00, 0x00, 0x00, 0x00, 0x00,
  0x00, 0x00, 0x00, 0x00, 0x01, 0x00, 0x00, 0x00, 0x3d, 0x19, 0xc7, 0x38,
  0x34, 0x00, 0x00, 0x00, 0x73, 0x65, 0x71, 0x75, 0x65, 0x6e, 0x74, 0x69,
  0x61, 0x6c, 0x5f, 0x32, 0x2f, 0x64, 0x65, 0x6e, 0x73, 0x65, 0x5f, 0x36,
  0x2f, 0x42, 0x69, 0x61, 0x73, 0x41, 0x64, 0x64, 0x2f, 0x52, 0x65, 0x61,
  0x64, 0x56, 0x61, 0x72, 0x69, 0x61, 0x62, 0x6c, 0x65, 0x4f, 0x70, 0x2f,
  0x72, 0x65, 0x73, 0x6f, 0x75, 0x72, 0x63, 0x65, 0x00, 0x00, 0x00, 0x00,
  0x01, 0x00, 0x00, 0x00, 0x1e, 0x00, 0x00, 0x00, 0x14, 0x00, 0x1c, 0x00,
  0x18, 0x00, 0x17, 0x00, 0x10, 0x00, 0x0c, 0x00, 0x08, 0x00, 0x00, 0x00,
  0x00, 0x00, 0x04, 0x00, 0x14, 0x00, 0x00, 0x00, 0x18, 0x00, 0x00, 0x00,
  0x2c, 0x00, 0x00, 0x00, 0x64, 0x00, 0x00, 0x00, 0x01, 0x00, 0x00, 0x00,
  0x00, 0x00, 0x00, 0x09, 0x6c, 0x00, 0x00, 0x00, 0x02, 0x00, 0x00, 0x00,
  0xff, 0xff, 0xff, 0xff, 0x01, 0x00, 0x00, 0x00, 0x0c, 0x00, 0x14, 0x00,
  0x10, 0x00, 0x0c, 0x00, 0x08, 0x00, 0x04, 0x00, 0x0c, 0x00, 0x00, 0x00,
  0x10, 0x00, 0x00, 0x00, 0x1c, 0x00, 0x00, 0x00, 0x20, 0x00, 0x00, 0x00,
  0x24, 0x00, 0x00, 0x00, 0x01, 0x00, 0x00, 0x00, 0x85, 0xff, 0xff, 0xff,
  0xff, 0xff, 0xff, 0xff, 0x00, 0x00, 0x00, 0x00, 0x01, 0x00, 0x00, 0x00,
  0xb5, 0xd9, 0xc9, 0x3c, 0x01, 0x00, 0x00, 0x00, 0x91, 0x4b, 0xc5, 0x40,
  0x01, 0x00, 0x00, 0x00, 0x78, 0x12, 0xf1, 0xbd, 0x0c, 0x00, 0x00, 0x00,
  0x69, 0x6e, 0x70, 0x75, 0x74, 0x5f, 0x33, 0x5f, 0x69, 0x6e, 0x74, 0x38,
  0x00, 0x00, 0x00, 0x00, 0x02, 0x00, 0x00, 0x00, 0x01, 0x00, 0x00, 0x00,
  0x01, 0x00, 0x00, 0x00, 0x03, 0x00, 0x00, 0x00, 0x40, 0x00, 0x00, 0x00,
  0x24, 0x00, 0x00, 0x00, 0x04, 0x00, 0x00, 0x00, 0xd8, 0xff, 0xff, 0xff,
  0x06, 0x00, 0x00, 0x00, 0x02, 0x00, 0x00, 0x00, 0x00, 0x00, 0x00, 0x06,
  0x0c, 0x00, 0x0c, 0x00, 0x0b, 0x00, 0x00, 0x00, 0x00, 0x00, 0x04, 0x00,
  0x0c, 0x00, 0x00, 0x00, 0x72, 0x00, 0x00, 0x00, 0x00, 0x00, 0x00, 0x72,
  0x0c, 0x00, 0x10, 0x00, 0x0f, 0x00, 0x00, 0x00, 0x08, 0x00, 0x04, 0x00,
  0x0c, 0x00, 0x00, 0x00, 0x09, 0x00, 0x00, 0x00, 0x04, 0x00, 0x00, 0x00,
  0x00, 0x00, 0x00, 0x09
};
unsigned int converted_model_tflite_len = 3400;
